#include "model.h"

// Keep model aligned to 8 bytes to guarantee aligned 64-bit accesses.
alignas(8) const unsigned char g_model[] = {
  0x1c, 0x00, 0x00, 0x00, 0x54, 0x46, 0x4c, 0x33, 0x14, 0x00, 0x20, 0x00,
  0x1c, 0x00, 0x18, 0x00, 0x14, 0x00, 0x10, 0x00, 0x0c, 0x00, 0x00, 0x00,
  0x08, 0x00, 0x04, 0x00, 0x14, 0x00, 0x00, 0x00, 0x1c, 0x00, 0x00, 0x00,
  0x94, 0x00, 0x00, 0x00, 0xec, 0x00, 0x00, 0x00, 0xc4, 0x04, 0x00, 0x00,
  0xd4, 0x04, 0x00, 0x00, 0xb0, 0x09, 0x00, 0x00, 0x03, 0x00, 0x00, 0x00,
  0x01, 0x00, 0x00, 0x00, 0x10, 0x00, 0x00, 0x00, 0x00, 0x00, 0x0a, 0x00,
  0x10, 0x00, 0x0c, 0x00, 0x08, 0x00, 0x04, 0x00, 0x0a, 0x00, 0x00, 0x00,
  0x0c, 0x00, 0x00, 0x00, 0x1c, 0x00, 0x00, 0x00, 0x38, 0x00, 0x00, 0x00,
  0x0f, 0x00, 0x00, 0x00, 0x73, 0x65, 0x72, 0x76, 0x69, 0x6e, 0x67, 0x5f,
  0x64, 0x65, 0x66, 0x61, 0x75, 0x6c, 0x74, 0x00, 0x01, 0x00, 0x00, 0x00,
  0x04, 0x00, 0x00, 0x00, 0x94, 0xff, 0xff, 0xff, 0x09, 0x00, 0x00, 0x00,
  0x04, 0x00, 0x00, 0x00, 0x07, 0x00, 0x00, 0x00, 0x64, 0x65, 0x6e, 0x73,
  0x65, 0x5f, 0x35, 0x00, 0x01, 0x00, 0x00, 0x00, 0x04, 0x00, 0x00, 0x00,
  0xca, 0xfb, 0xff, 0xff, 0x04, 0x00, 0x00, 0x00, 0x0d, 0x00, 0x00, 0x00,
  0x64, 0x65, 0x6e, 0x73, 0x65, 0x5f, 0x33, 0x5f, 0x69, 0x6e, 0x70, 0x75,
  0x74, 0x00, 0x00, 0x00, 0x02, 0x00, 0x00, 0x00, 0x34, 0x00, 0x00, 0x00,
  0x04, 0x00, 0x00, 0x00, 0xdc, 0xff, 0xff, 0xff, 0x0c, 0x00, 0x00, 0x00,
  0x04, 0x00, 0x00, 0x00, 0x13, 0x00, 0x00, 0x00, 0x43, 0x4f, 0x4e, 0x56,
  0x45, 0x52, 0x53, 0x49, 0x4f, 0x4e, 0x5f, 0x4d, 0x45, 0x54, 0x41, 0x44,
  0x41, 0x54, 0x41, 0x00, 0x08, 0x00, 0x0c, 0x00, 0x08, 0x00, 0x04, 0x00,
  0x08, 0x00, 0x00, 0x00, 0x0b, 0x00, 0x00, 0x00, 0x04, 0x00, 0x00, 0x00,
  0x13, 0x00, 0x00, 0x00, 0x6d, 0x69, 0x6e, 0x5f, 0x72, 0x75, 0x6e, 0x74,
  0x69, 0x6d, 0x65, 0x5f, 0x76, 0x65, 0x72, 0x73, 0x69, 0x6f, 0x6e, 0x00,
  0x0d, 0x00, 0x00, 0x00, 0xd4, 0x03, 0x00, 0x00, 0xcc, 0x03, 0x00, 0x00,
  0xb8, 0x03, 0x00, 0x00, 0x60, 0x03, 0x00, 0x00, 0x30, 0x03, 0x00, 0x00,
  0x00, 0x03, 0x00, 0x00, 0xf0, 0x00, 0x00, 0x00, 0xa0, 0x00, 0x00, 0x00,
  0x98, 0x00, 0x00, 0x00, 0x90, 0x00, 0x00, 0x00, 0x88, 0x00, 0x00, 0x00,
  0x68, 0x00, 0x00, 0x00, 0x04, 0x00, 0x00, 0x00, 0x7a, 0xfc, 0xff, 0xff,
  0x04, 0x00, 0x00, 0x00, 0x54, 0x00, 0x00, 0x00, 0x0c, 0x00, 0x00, 0x00,
  0x08, 0x00, 0x0e, 0x00, 0x08, 0x00, 0x04, 0x00, 0x08, 0x00, 0x00, 0x00,
  0x10, 0x00, 0x00, 0x00, 0x24, 0x00, 0x00, 0x00, 0x00, 0x00, 0x06, 0x00,
  0x08, 0x00, 0x04, 0x00, 0x06, 0x00, 0x00, 0x00, 0x04, 0x00, 0x00, 0x00,
  0x00, 0x00, 0x00, 0x00, 0x00, 0x00, 0x0a, 0x00, 0x10, 0x00, 0x0c, 0x00,
  0x08, 0x00, 0x04, 0x00, 0x0a, 0x00, 0x00, 0x00, 0x02, 0x00, 0x00, 0x00,
  0x02, 0x00, 0x00, 0x00, 0x04, 0x00, 0x00, 0x00, 0x05, 0x00, 0x00, 0x00,
  0x32, 0x2e, 0x39, 0x2e, 0x32, 0x00, 0x00, 0x00, 0xda, 0xfc, 0xff, 0xff,
  0x04, 0x00, 0x00, 0x00, 0x10, 0x00, 0x00, 0x00, 0x31, 0x2e, 0x35, 0x2e,
  0x30, 0x00, 0x00, 0x00, 0x00, 0x00, 0x00, 0x00, 0x00, 0x00, 0x00, 0x00,
  0x1c, 0xf8, 0xff, 0xff, 0x20, 0xf8, 0xff, 0xff, 0x24, 0xf8, 0xff, 0xff,
  0x02, 0xfd, 0xff, 0xff, 0x04, 0x00, 0x00, 0x00, 0x40, 0x00, 0x00, 0x00,
  0x82, 0xd3, 0xfe, 0xbe, 0xfe, 0x97, 0xb9, 0xbe, 0x5d, 0x17, 0x00, 0x3f,
  0xc6, 0x54, 0x6c, 0xbf, 0xd5, 0x4f, 0x64, 0x3f, 0x47, 0x97, 0x0f, 0x3e,
  0x61, 0xba, 0x1d, 0x3b, 0xb0, 0xb3, 0xaa, 0x3e, 0x23, 0x34, 0xeb, 0xbe,
  0x25, 0xd3, 0xb5, 0xbf, 0x27, 0xbe, 0x45, 0x3e, 0xb6, 0x24, 0xd8, 0xbe,
  0xb1, 0x42, 0x32, 0xbf, 0x00, 0x49, 0x39, 0x3e, 0xd7, 0xb0, 0xc1, 0xbf,
  0xd8, 0xbd, 0x1a, 0x3f, 0x4e, 0xfd, 0xff, 0xff, 0x04, 0x00, 0x00, 0x00,
  0x00, 0x02, 0x00, 0x00, 0xec, 0x4e, 0xb4, 0x3e, 0xec, 0x80, 0xa6, 0x3e,
  0xc0, 0x7e, 0xdf, 0xbd, 0x7c, 0x5f, 0xbd, 0xbe, 0x08, 0x85, 0xb0, 0x3e,
  0x40, 0x54, 0xa8, 0x3c, 0xd8, 0x38, 0x1a, 0xbe, 0x80, 0x2c, 0x43, 0xbd,
  0x20, 0x3e, 0x89, 0x3e, 0xd4, 0x3a, 0xdc, 0xbe, 0x40, 0xdf, 0xc1, 0x3c,
  0xc0, 0x90, 0x3c, 0xbd, 0xe0, 0x47, 0xb4, 0xbd, 0xb0, 0xf4, 0x4a, 0xbe,
  0x50, 0x03, 0xab, 0xbd, 0xb4, 0x3e, 0xa8, 0xbe, 0x78, 0xdc, 0xc0, 0x3e,
  0x04, 0xf2, 0xca, 0xbe, 0x64, 0xbe, 0xb3, 0xbe, 0x93, 0x43, 0x3f, 0x3e,
  0x98, 0x20, 0xd6, 0x3e, 0x10, 0x3d, 0x59, 0x3e, 0x9d, 0xbf, 0xdb, 0x3e,
  0x51, 0x95, 0x37, 0x3d, 0xa0, 0x52, 0xf0, 0x3e, 0x7c, 0x2d, 0xe1, 0xbe,
  0x50, 0xbd, 0xdf, 0xbd, 0xa3, 0xfc, 0x57, 0x3d, 0x40, 0x6b, 0xe8, 0x3e,
  0x3f, 0x3f, 0xe5, 0xbe, 0x94, 0xf1, 0x79, 0xbf, 0x67, 0xf5, 0xa7, 0x3e,
  0xa0, 0x7e, 0x90, 0x3e, 0xd0, 0x7d, 0x0e, 0x3e, 0x21, 0x4b, 0x36, 0xbf,
  0x30, 0xb9, 0x5b, 0x3e, 0xf0, 0xb8, 0xf5, 0x3e, 0xb6, 0x83, 0x23, 0x3e,
  0xc1, 0x6a, 0x9c, 0x3e, 0x10, 0x4b, 0x88, 0x3e, 0x60, 0x36, 0x45, 0xbe,
  0x44, 0x76, 0xf2, 0xbe, 0x70, 0x5c, 0x9f, 0xbe, 0x16, 0x53, 0xa2, 0x3e,
  0xe0, 0xbd, 0xb1, 0xbd, 0xe3, 0xc1, 0xa1, 0xbd, 0x8c, 0x4d, 0x03, 0xbf,
  0xf8, 0x15, 0x85, 0x3d, 0x44, 0x25, 0x82, 0xbe, 0x9c, 0xc7, 0xed, 0x3e,
  0xd8, 0xd8, 0xb1, 0x3e, 0x19, 0xcd, 0x80, 0xbe, 0x28, 0x4d, 0x22, 0xbe,
  0xd5, 0xdd, 0xea, 0xbe, 0x55, 0x85, 0x6d, 0x3e, 0xed, 0x29, 0xb8, 0x3e,
  0xb8, 0xb5, 0x7d, 0xbe, 0x38, 0x68, 0xa2, 0x3e, 0x00, 0x74, 0x10, 0x3e,
  0x98, 0x9c, 0x00, 0xbe, 0xa8, 0xb3, 0xc3, 0x3e, 0x90, 0xcf, 0xe9, 0xbe,
  0x80, 0x63, 0xd5, 0x3c, 0x74, 0x2f, 0x87, 0xbe, 0x20, 0xa2, 0x91, 0x3d,
  0x9c, 0xc8, 0x89, 0xbe, 0xc0, 0x39, 0xe1, 0x3d, 0xbc, 0x20, 0xab, 0xbe,
  0x20, 0x49, 0x3f, 0x3d, 0x0c, 0xc9, 0x82, 0xbe, 0xd0, 0x44, 0x17, 0xbe,
  0x7c, 0xe4, 0xd0, 0x3e, 0x80, 0x40, 0x9b, 0x3e, 0x10, 0xfa, 0x9c, 0x3d,
  0x10, 0x87, 0x94, 0x3f, 0xcf, 0x68, 0xac, 0x3e, 0x98, 0xbc, 0x84, 0xbe,
  0x00, 0xac, 0xd8, 0xbe, 0xa7, 0x60, 0x73, 0xbe, 0x79, 0x66, 0x0c, 0x3e,
  0x10, 0x89, 0x0e, 0x3e, 0xe0, 0x01, 0x11, 0x3d, 0x3e, 0xc8, 0x8c, 0xbe,
  0xcc, 0x55, 0x21, 0x3e, 0x20, 0x12, 0x6e, 0xbe, 0x08, 0x4b, 0x3d, 0x3d,
  0x51, 0x70, 0xd5, 0x3e, 0x4e, 0xe6, 0xa2, 0xbe, 0xb4, 0xf0, 0x8b, 0xbe,
  0x00, 0xee, 0x8a, 0x3c, 0x23, 0x2b, 0x59, 0x3c, 0x14, 0x08, 0xf7, 0xbe,
  0xf8, 0xf2, 0xbe, 0xbe, 0x3a, 0xe5, 0x24, 0xbe, 0xc1, 0xe2, 0x60, 0x3e,
  0xbf, 0x36, 0x41, 0x3e, 0x88, 0x17, 0x03, 0xbe, 0xf0, 0x5f, 0xa3, 0xbd,
  0x27, 0x5a, 0xcb, 0xbe, 0xe3, 0xec, 0x6b, 0x3e, 0x88, 0xc3, 0xc9, 0x3e,
  0x80, 0xa0, 0x23, 0xbf, 0x00, 0x70, 0x7f, 0xbf, 0x8e, 0x01, 0xb1, 0x3d,
  0x90, 0x9a, 0xc7, 0x3e, 0x58, 0xeb, 0x98, 0x3e, 0x80, 0x22, 0x53, 0x3c,
  0x08, 0xea, 0x19, 0xbe, 0xd0, 0xa1, 0x52, 0x3e, 0xcc, 0xa0, 0x91, 0x3e,
  0x30, 0x3f, 0x3b, 0xbe, 0xa0, 0xc6, 0x2f, 0xbe, 0x20, 0x56, 0x98, 0x3d,
  0x40, 0xd5, 0x33, 0xbd, 0xc6, 0x56, 0xf9, 0x3d, 0x33, 0xd1, 0x84, 0xbe,
  0x68, 0xaf, 0x04, 0xbe, 0xab, 0xd2, 0x81, 0x3e, 0x65, 0xac, 0x2b, 0x3f,
  0xe9, 0x6a, 0x8f, 0x3e, 0x2c, 0x8a, 0xd4, 0x3e, 0xc0, 0xce, 0x85, 0x3d,
  0xcb, 0x99, 0xbb, 0xbe, 0x0d, 0xe3, 0xc6, 0x3e, 0x10, 0xf3, 0xe4, 0xbd,
  0x80, 0xfc, 0x22, 0xbe, 0xc7, 0x20, 0xd5, 0xbb, 0x2a, 0xf3, 0x7a, 0x3e,
  0x5a, 0xff, 0xff, 0xff, 0x04, 0x00, 0x00, 0x00, 0x20, 0x00, 0x00, 0x00,
  0x00, 0xa8, 0xbe, 0xb9, 0x88, 0x42, 0x96, 0xbe, 0x05, 0xd8, 0x84, 0x3f,
  0x58, 0x7c, 0x23, 0x3e, 0xec, 0x91, 0x32, 0xbf, 0x8b, 0x9f, 0xdc, 0x3e,
  0xfe, 0xa4, 0x6f, 0x3f, 0xae, 0xfa, 0x2a, 0x3e, 0x86, 0xff, 0xff, 0xff,
  0x04, 0x00, 0x00, 0x00, 0x20, 0x00, 0x00, 0x00, 0x00, 0x00, 0x00, 0x00,
  0x00, 0x00, 0x00, 0x00, 0x63, 0x21, 0x21, 0xbf, 0x5a, 0x67, 0x4e, 0x3e,
  0x00, 0x00, 0x00, 0x00, 0x36, 0xb6, 0x67, 0x3c, 0xf1, 0x29, 0xb7, 0x3a,
  0x3d, 0x72, 0x4b, 0x3d, 0xb2, 0xff, 0xff, 0xff, 0x04, 0x00, 0x00, 0x00,
  0x40, 0x00, 0x00, 0x00, 0x00, 0x00, 0x00, 0x00, 0x00, 0x00, 0x00, 0x00,
  0x5a, 0xd8, 0x23, 0x3e, 0xcc, 0x5a, 0x7f, 0x3e, 0xa6, 0xb3, 0x31, 0x3e,
  0x90, 0xc3, 0xaa, 0xbd, 0xc5, 0x4a, 0xc3, 0x3d, 0x00, 0x00, 0x00, 0x00,
  0x00, 0x00, 0x00, 0x00, 0x45, 0xb0, 0x5d, 0xbc, 0x33, 0x63, 0x28, 0x3e,
  0x82, 0x0c, 0x6e, 0xbc, 0x76, 0xe4, 0xd0, 0x3e, 0x00, 0x00, 0x00, 0x00,
  0x56, 0x17, 0xa6, 0xbe, 0x41, 0x25, 0x33, 0x3e, 0x00, 0x00, 0x06, 0x00,
  0x08, 0x00, 0x04, 0x00, 0x06, 0x00, 0x00, 0x00, 0x04, 0x00, 0x00, 0x00,
  0x04, 0x00, 0x00, 0x00, 0x2f, 0x7b, 0x1e, 0x3e, 0x3c, 0xfb, 0xff, 0xff,
  0x40, 0xfb, 0xff, 0xff, 0x0f, 0x00, 0x00, 0x00, 0x4d, 0x4c, 0x49, 0x52,
  0x20, 0x43, 0x6f, 0x6e, 0x76, 0x65, 0x72, 0x74, 0x65, 0x64, 0x2e, 0x00,
  0x01, 0x00, 0x00, 0x00, 0x14, 0x00, 0x00, 0x00, 0x00, 0x00, 0x0e, 0x00,
  0x18, 0x00, 0x14, 0x00, 0x10, 0x00, 0x0c, 0x00, 0x08, 0x00, 0x04, 0x00,
  0x0e, 0x00, 0x00, 0x00, 0x14, 0x00, 0x00, 0x00, 0x1c, 0x00, 0x00, 0x00,
  0xd8, 0x00, 0x00, 0x00, 0xdc, 0x00, 0x00, 0x00, 0xe0, 0x00, 0x00, 0x00,
  0x04, 0x00, 0x00, 0x00, 0x6d, 0x61, 0x69, 0x6e, 0x00, 0x00, 0x00, 0x00,
  0x03, 0x00, 0x00, 0x00, 0x80, 0x00, 0x00, 0x00, 0x38, 0x00, 0x00, 0x00,
  0x04, 0x00, 0x00, 0x00, 0x9a, 0xff, 0xff, 0xff, 0x10, 0x00, 0x00, 0x00,
  0x00, 0x00, 0x00, 0x08, 0x0c, 0x00, 0x00, 0x00, 0x10, 0x00, 0x00, 0x00,
  0xb8, 0xfb, 0xff, 0xff, 0x01, 0x00, 0x00, 0x00, 0x09, 0x00, 0x00, 0x00,
  0x03, 0x00, 0x00, 0x00, 0x08, 0x00, 0x00, 0x00, 0x06, 0x00, 0x00, 0x00,
  0x01, 0x00, 0x00, 0x00, 0xca, 0xff, 0xff, 0xff, 0x10, 0x00, 0x00, 0x00,
  0x00, 0x00, 0x00, 0x08, 0x10, 0x00, 0x00, 0x00, 0x14, 0x00, 0x00, 0x00,
  0xba, 0xff, 0xff, 0xff, 0x00, 0x00, 0x00, 0x01, 0x01, 0x00, 0x00, 0x00,
  0x08, 0x00, 0x00, 0x00, 0x03, 0x00, 0x00, 0x00, 0x07, 0x00, 0x00, 0x00,
  0x05, 0x00, 0x00, 0x00, 0x02, 0x00, 0x00, 0x00, 0x00, 0x00, 0x0e, 0x00,
  0x16, 0x00, 0x00, 0x00, 0x10, 0x00, 0x0c, 0x00, 0x0b, 0x00, 0x04, 0x00,
  0x0e, 0x00, 0x00, 0x00, 0x18, 0x00, 0x00, 0x00, 0x00, 0x00, 0x00, 0x08,
  0x18, 0x00, 0x00, 0x00, 0x1c, 0x00, 0x00, 0x00, 0x00, 0x00, 0x06, 0x00,
  0x08, 0x00, 0x07, 0x00, 0x06, 0x00, 0x00, 0x00, 0x00, 0x00, 0x00, 0x01,
  0x01, 0x00, 0x00, 0x00, 0x07, 0x00, 0x00, 0x00, 0x03, 0x00, 0x00, 0x00,
  0x00, 0x00, 0x00, 0x00, 0x04, 0x00, 0x00, 0x00, 0x03, 0x00, 0x00, 0x00,
  0x01, 0x00, 0x00, 0x00, 0x09, 0x00, 0x00, 0x00, 0x01, 0x00, 0x00, 0x00,
  0x00, 0x00, 0x00, 0x00, 0x0a, 0x00, 0x00, 0x00, 0x74, 0x03, 0x00, 0x00,
  0x0c, 0x03, 0x00, 0x00, 0xa8, 0x02, 0x00, 0x00, 0x54, 0x02, 0x00, 0x00,
  0x0c, 0x02, 0x00, 0x00, 0xc4, 0x01, 0x00, 0x00, 0x7c, 0x01, 0x00, 0x00,
  0xec, 0x00, 0x00, 0x00, 0x5c, 0x00, 0x00, 0x00, 0x04, 0x00, 0x00, 0x00,
  0xc8, 0xfc, 0xff, 0xff, 0x14, 0x00, 0x00, 0x00, 0x1c, 0x00, 0x00, 0x00,
  0x1c, 0x00, 0x00, 0x00, 0x0a, 0x00, 0x00, 0x00, 0x34, 0x00, 0x00, 0x00,
  0x02, 0x00, 0x00, 0x00, 0xff, 0xff, 0xff, 0xff, 0x01, 0x00, 0x00, 0x00,
  0xb4, 0xfc, 0xff, 0xff, 0x19, 0x00, 0x00, 0x00, 0x53, 0x74, 0x61, 0x74,
  0x65, 0x66, 0x75, 0x6c, 0x50, 0x61, 0x72, 0x74, 0x69, 0x74, 0x69, 0x6f,
  0x6e, 0x65, 0x64, 0x43, 0x61, 0x6c, 0x6c, 0x3a, 0x30, 0x00, 0x00, 0x00,
  0x02, 0x00, 0x00, 0x00, 0x01, 0x00, 0x00, 0x00, 0x01, 0x00, 0x00, 0x00,
  0x1c, 0xfd, 0xff, 0xff, 0x14, 0x00, 0x00, 0x00, 0x1c, 0x00, 0x00, 0x00,
  0x1c, 0x00, 0x00, 0x00, 0x09, 0x00, 0x00, 0x00, 0x6c, 0x00, 0x00, 0x00,
  0x02, 0x00, 0x00, 0x00, 0xff, 0xff, 0xff, 0xff, 0x10, 0x00, 0x00, 0x00,
  0x08, 0xfd, 0xff, 0xff, 0x52, 0x00, 0x00, 0x00, 0x73, 0x65, 0x71, 0x75,
  0x65, 0x6e, 0x74, 0x69, 0x61, 0x6c, 0x5f, 0x31, 0x2f, 0x64, 0x65, 0x6e,
  0x73, 0x65, 0x5f, 0x34, 0x2f, 0x4d, 0x61, 0x74, 0x4d, 0x75, 0x6c, 0x3b,
  0x73, 0x65, 0x71, 0x75, 0x65, 0x6e, 0x74, 0x69, 0x61, 0x6c, 0x5f, 0x31,
  0x2f, 0x64, 0x65, 0x6e, 0x73, 0x65, 0x5f, 0x34, 0x2f, 0x52, 0x65, 0x6c,
  0x75, 0x3b, 0x73, 0x65, 0x71, 0x75, 0x65, 0x6e, 0x74, 0x69, 0x61, 0x6c,
  0x5f, 0x31, 0x2f, 0x64, 0x65, 0x6e, 0x73, 0x65, 0x5f, 0x34, 0x2f, 0x42,
  0x69, 0x61, 0x73, 0x41, 0x64, 0x64, 0x00, 0x00, 0x02, 0x00, 0x00, 0x00,
  0x01, 0x00, 0x00, 0x00, 0x10, 0x00, 0x00, 0x00, 0xa8, 0xfd, 0xff, 0xff,
  0x14, 0x00, 0x00, 0x00, 0x1c, 0x00, 0x00, 0x00, 0x1c, 0x00, 0x00, 0x00,
  0x08, 0x00, 0x00, 0x00, 0x6c, 0x00, 0x00, 0x00, 0x02, 0x00, 0x00, 0x00,
  0xff, 0xff, 0xff, 0xff, 0x08, 0x00, 0x00, 0x00, 0x94, 0xfd, 0xff, 0xff,
  0x52, 0x00, 0x00, 0x00, 0x73, 0x65, 0x71, 0x75, 0x65, 0x6e, 0x74, 0x69,
  0x61, 0x6c, 0x5f, 0x31, 0x2f, 0x64, 0x65, 0x6e, 0x73, 0x65, 0x5f, 0x33,
  0x2f, 0x4d, 0x61, 0x74, 0x4d, 0x75, 0x6c, 0x3b, 0x73, 0x65, 0x71, 0x75,
  0x65, 0x6e, 0x74, 0x69, 0x61, 0x6c, 0x5f, 0x31, 0x2f, 0x64, 0x65, 0x6e,
  0x73, 0x65, 0x5f, 0x33, 0x2f, 0x52, 0x65, 0x6c, 0x75, 0x3b, 0x73, 0x65,
  0x71, 0x75, 0x65, 0x6e, 0x74, 0x69, 0x61, 0x6c, 0x5f, 0x31, 0x2f, 0x64,
  0x65, 0x6e, 0x73, 0x65, 0x5f, 0x33, 0x2f, 0x42, 0x69, 0x61, 0x73, 0x41,
  0x64, 0x64, 0x00, 0x00, 0x02, 0x00, 0x00, 0x00, 0x01, 0x00, 0x00, 0x00,
  0x08, 0x00, 0x00, 0x00, 0x92, 0xfe, 0xff, 0xff, 0x10, 0x00, 0x00, 0x00,
  0x10, 0x00, 0x00, 0x00, 0x07, 0x00, 0x00, 0x00, 0x28, 0x00, 0x00, 0x00,
  0x10, 0xfe, 0xff, 0xff, 0x1b, 0x00, 0x00, 0x00, 0x73, 0x65, 0x71, 0x75,
  0x65, 0x6e, 0x74, 0x69, 0x61, 0x6c, 0x5f, 0x31, 0x2f, 0x64, 0x65, 0x6e,
  0x73, 0x65, 0x5f, 0x35, 0x2f, 0x4d, 0x61, 0x74, 0x4d, 0x75, 0x6c, 0x00,
  0x02, 0x00, 0x00, 0x00, 0x01, 0x00, 0x00, 0x00, 0x10, 0x00, 0x00, 0x00,
  0xd6, 0xfe, 0xff, 0xff, 0x10, 0x00, 0x00, 0x00, 0x10, 0x00, 0x00, 0x00,
  0x06, 0x00, 0x00, 0x00, 0x28, 0x00, 0x00, 0x00, 0x54, 0xfe, 0xff, 0xff,
  0x1b, 0x00, 0x00, 0x00, 0x73, 0x65, 0x71, 0x75, 0x65, 0x6e, 0x74, 0x69,
  0x61, 0x6c, 0x5f, 0x31, 0x2f, 0x64, 0x65, 0x6e, 0x73, 0x65, 0x5f, 0x34,
  0x2f, 0x4d, 0x61, 0x74, 0x4d, 0x75, 0x6c, 0x00, 0x02, 0x00, 0x00, 0x00,
  0x10, 0x00, 0x00, 0x00, 0x08, 0x00, 0x00, 0x00, 0x1a, 0xff, 0xff, 0xff,
  0x10, 0x00, 0x00, 0x00, 0x10, 0x00, 0x00, 0x00, 0x05, 0x00, 0x00, 0x00,
  0x28, 0x00, 0x00, 0x00, 0x98, 0xfe, 0xff, 0xff, 0x1b, 0x00, 0x00, 0x00,
  0x73, 0x65, 0x71, 0x75, 0x65, 0x6e, 0x74, 0x69, 0x61, 0x6c, 0x5f, 0x31,
  0x2f, 0x64, 0x65, 0x6e, 0x73, 0x65, 0x5f, 0x33, 0x2f, 0x4d, 0x61, 0x74,
  0x4d, 0x75, 0x6c, 0x00, 0x02, 0x00, 0x00, 0x00, 0x08, 0x00, 0x00, 0x00,
  0x01, 0x00, 0x00, 0x00, 0x5e, 0xff, 0xff, 0xff, 0x10, 0x00, 0x00, 0x00,
  0x10, 0x00, 0x00, 0x00, 0x04, 0x00, 0x00, 0x00, 0x38, 0x00, 0x00, 0x00,
  0xdc, 0xfe, 0xff, 0xff, 0x2b, 0x00, 0x00, 0x00, 0x73, 0x65, 0x71, 0x75,
  0x65, 0x6e, 0x74, 0x69, 0x61, 0x6c, 0x5f, 0x31, 0x2f, 0x64, 0x65, 0x6e,
  0x73, 0x65, 0x5f, 0x33, 0x2f, 0x42, 0x69, 0x61, 0x73, 0x41, 0x64, 0x64,
  0x2f, 0x52, 0x65, 0x61, 0x64, 0x56, 0x61, 0x72, 0x69, 0x61, 0x62, 0x6c,
  0x65, 0x4f, 0x70, 0x00, 0x01, 0x00, 0x00, 0x00, 0x08, 0x00, 0x00, 0x00,
  0xae, 0xff, 0xff, 0xff, 0x10, 0x00, 0x00, 0x00, 0x10, 0x00, 0x00, 0x00,
  0x03, 0x00, 0x00, 0x00, 0x38, 0x00, 0x00, 0x00, 0x2c, 0xff, 0xff, 0xff,
  0x2b, 0x00, 0x00, 0x00, 0x73, 0x65, 0x71, 0x75, 0x65, 0x6e, 0x74, 0x69,
  0x61, 0x6c, 0x5f, 0x31, 0x2f, 0x64, 0x65, 0x6e, 0x73, 0x65, 0x5f, 0x34,
  0x2f, 0x42, 0x69, 0x61, 0x73, 0x41, 0x64, 0x64, 0x2f, 0x52, 0x65, 0x61,
  0x64, 0x56, 0x61, 0x72, 0x69, 0x61, 0x62, 0x6c, 0x65, 0x4f, 0x70, 0x00,
  0x01, 0x00, 0x00, 0x00, 0x10, 0x00, 0x00, 0x00, 0x00, 0x00, 0x0e, 0x00,
  0x14, 0x00, 0x10, 0x00, 0x00, 0x00, 0x0c, 0x00, 0x08, 0x00, 0x04, 0x00,
  0x0e, 0x00, 0x00, 0x00, 0x10, 0x00, 0x00, 0x00, 0x10, 0x00, 0x00, 0x00,
  0x02, 0x00, 0x00, 0x00, 0x38, 0x00, 0x00, 0x00, 0x8c, 0xff, 0xff, 0xff,
  0x2b, 0x00, 0x00, 0x00, 0x73, 0x65, 0x71, 0x75, 0x65, 0x6e, 0x74, 0x69,
  0x61, 0x6c, 0x5f, 0x31, 0x2f, 0x64, 0x65, 0x6e, 0x73, 0x65, 0x5f, 0x35,
  0x2f, 0x42, 0x69, 0x61, 0x73, 0x41, 0x64, 0x64, 0x2f, 0x52, 0x65, 0x61,
  0x64, 0x56, 0x61, 0x72, 0x69, 0x61, 0x62, 0x6c, 0x65, 0x4f, 0x70, 0x00,
  0x01, 0x00, 0x00, 0x00, 0x01, 0x00, 0x00, 0x00, 0x14, 0x00, 0x18, 0x00,
  0x14, 0x00, 0x00, 0x00, 0x10, 0x00, 0x0c, 0x00, 0x08, 0x00, 0x00, 0x00,
  0x00, 0x00, 0x04, 0x00, 0x14, 0x00, 0x00, 0x00, 0x14, 0x00, 0x00, 0x00,
  0x20, 0x00, 0x00, 0x00, 0x20, 0x00, 0x00, 0x00, 0x01, 0x00, 0x00, 0x00,
  0x3c, 0x00, 0x00, 0x00, 0x02, 0x00, 0x00, 0x00, 0xff, 0xff, 0xff, 0xff,
  0x01, 0x00, 0x00, 0x00, 0x04, 0x00, 0x04, 0x00, 0x04, 0x00, 0x00, 0x00,
  0x1f, 0x00, 0x00, 0x00, 0x73, 0x65, 0x72, 0x76, 0x69, 0x6e, 0x67, 0x5f,
  0x64, 0x65, 0x66, 0x61, 0x75, 0x6c, 0x74, 0x5f, 0x64, 0x65, 0x6e, 0x73,
  0x65, 0x5f, 0x33, 0x5f, 0x69, 0x6e, 0x70, 0x75, 0x74, 0x3a, 0x30, 0x00,
  0x02, 0x00, 0x00, 0x00, 0x01, 0x00, 0x00, 0x00, 0x01, 0x00, 0x00, 0x00,
  0x01, 0x00, 0x00, 0x00, 0x10, 0x00, 0x00, 0x00, 0x0c, 0x00, 0x0c, 0x00,
  0x0b, 0x00, 0x00, 0x00, 0x00, 0x00, 0x04, 0x00, 0x0c, 0x00, 0x00, 0x00,
  0x09, 0x00, 0x00, 0x00, 0x00, 0x00, 0x00, 0x09
  };
const int g_model_len = 2564;
